#pragma once

#include <Arduino.h>

static const unsigned char g_humidity_model[] = {
  0x20, 0x00, 0x00, 0x00, 0x54, 0x46, 0x4c, 0x33, 0x00, 0x00, 0x00, 0x00,
  0x14, 0x00, 0x20, 0x00, 0x1c, 0x00, 0x18, 0x00, 0x14, 0x00, 0x10, 0x00,
  0x0c, 0x00, 0x00, 0x00, 0x08, 0x00, 0x04, 0x00, 0x14, 0x00, 0x00, 0x00,
  0x1c, 0x00, 0x00, 0x00, 0x8c, 0x00, 0x00, 0x00, 0xe4, 0x00, 0x00, 0x00,
  0x04, 0x07, 0x00, 0x00, 0x14, 0x07, 0x00, 0x00, 0x20, 0x13, 0x00, 0x00,
  0x03, 0x00, 0x00, 0x00, 0x01, 0x00, 0x00, 0x00, 0x04, 0x00, 0x00, 0x00,
  0xee, 0xf7, 0xff, 0xff, 0x0c, 0x00, 0x00, 0x00, 0x1c, 0x00, 0x00, 0x00,
  0x3c, 0x00, 0x00, 0x00, 0x0f, 0x00, 0x00, 0x00, 0x73, 0x65, 0x72, 0x76,
  0x69, 0x6e, 0x67, 0x5f, 0x64, 0x65, 0x66, 0x61, 0x75, 0x6c, 0x74, 0x00,
  0x01, 0x00, 0x00, 0x00, 0x04, 0x00, 0x00, 0x00, 0x90, 0xff, 0xff, 0xff,
  0x10, 0x00, 0x00, 0x00, 0x04, 0x00, 0x00, 0x00, 0x08, 0x00, 0x00, 0x00,
  0x6f, 0x75, 0x74, 0x70, 0x75, 0x74, 0x5f, 0x30, 0x00, 0x00, 0x00, 0x00,
  0x01, 0x00, 0x00, 0x00, 0x04, 0x00, 0x00, 0x00, 0xf6, 0xf7, 0xff, 0xff,
  0x04, 0x00, 0x00, 0x00, 0x0c, 0x00, 0x00, 0x00, 0x6b, 0x65, 0x72, 0x61,
  0x73, 0x5f, 0x74, 0x65, 0x6e, 0x73, 0x6f, 0x72, 0x00, 0x00, 0x00, 0x00,
  0x02, 0x00, 0x00, 0x00, 0x34, 0x00, 0x00, 0x00, 0x04, 0x00, 0x00, 0x00,
  0xdc, 0xff, 0xff, 0xff, 0x13, 0x00, 0x00, 0x00, 0x04, 0x00, 0x00, 0x00,
  0x13, 0x00, 0x00, 0x00, 0x43, 0x4f, 0x4e, 0x56, 0x45, 0x52, 0x53, 0x49,
  0x4f, 0x4e, 0x5f, 0x4d, 0x45, 0x54, 0x41, 0x44, 0x41, 0x54, 0x41, 0x00,
  0x08, 0x00, 0x0c, 0x00, 0x08, 0x00, 0x04, 0x00, 0x08, 0x00, 0x00, 0x00,
  0x12, 0x00, 0x00, 0x00, 0x04, 0x00, 0x00, 0x00, 0x13, 0x00, 0x00, 0x00,
  0x6d, 0x69, 0x6e, 0x5f, 0x72, 0x75, 0x6e, 0x74, 0x69, 0x6d, 0x65, 0x5f,
  0x76, 0x65, 0x72, 0x73, 0x69, 0x6f, 0x6e, 0x00, 0x14, 0x00, 0x00, 0x00,
  0x1c, 0x06, 0x00, 0x00, 0x14, 0x06, 0x00, 0x00, 0x00, 0x06, 0x00, 0x00,
  0xec, 0x05, 0x00, 0x00, 0xd8, 0x05, 0x00, 0x00, 0xc4, 0x05, 0x00, 0x00,
  0xac, 0x05, 0x00, 0x00, 0x7c, 0x05, 0x00, 0x00, 0xec, 0x04, 0x00, 0x00,
  0x9c, 0x04, 0x00, 0x00, 0xcc, 0x00, 0x00, 0x00, 0xc4, 0x00, 0x00, 0x00,
  0xbc, 0x00, 0x00, 0x00, 0xb4, 0x00, 0x00, 0x00, 0xac, 0x00, 0x00, 0x00,
  0xa4, 0x00, 0x00, 0x00, 0x9c, 0x00, 0x00, 0x00, 0x94, 0x00, 0x00, 0x00,
  0x74, 0x00, 0x00, 0x00, 0x04, 0x00, 0x00, 0x00, 0xc2, 0xf8, 0xff, 0xff,
  0x04, 0x00, 0x00, 0x00, 0x60, 0x00, 0x00, 0x00, 0x0c, 0x00, 0x00, 0x00,
  0x08, 0x00, 0x0e, 0x00, 0x08, 0x00, 0x04, 0x00, 0x08, 0x00, 0x00, 0x00,
  0x10, 0x00, 0x00, 0x00, 0x28, 0x00, 0x00, 0x00, 0x00, 0x00, 0x06, 0x00,
  0x08, 0x00, 0x04, 0x00, 0x06, 0x00, 0x00, 0x00, 0x04, 0x00, 0x00, 0x00,
  0x01, 0x00, 0x00, 0x00, 0xeb, 0x03, 0x00, 0x00, 0x0c, 0x00, 0x18, 0x00,
  0x14, 0x00, 0x10, 0x00, 0x0c, 0x00, 0x04, 0x00, 0x0c, 0x00, 0x00, 0x00,
  0xc0, 0x9a, 0xc9, 0xa3, 0x5a, 0x2c, 0xbb, 0xa1, 0x02, 0x00, 0x00, 0x00,
  0x02, 0x00, 0x00, 0x00, 0x04, 0x00, 0x00, 0x00, 0x06, 0x00, 0x00, 0x00,
  0x32, 0x2e, 0x32, 0x31, 0x2e, 0x30, 0x00, 0x00, 0x2e, 0xf9, 0xff, 0xff,
  0x04, 0x00, 0x00, 0x00, 0x10, 0x00, 0x00, 0x00, 0x31, 0x2e, 0x31, 0x34,
  0x2e, 0x30, 0x00, 0x00, 0x00, 0x00, 0x00, 0x00, 0x00, 0x00, 0x00, 0x00,
  0x80, 0xef, 0xff, 0xff, 0x84, 0xef, 0xff, 0xff, 0x88, 0xef, 0xff, 0xff,
  0x8c, 0xef, 0xff, 0xff, 0x90, 0xef, 0xff, 0xff, 0x94, 0xef, 0xff, 0xff,
  0x98, 0xef, 0xff, 0xff, 0x66, 0xf9, 0xff, 0xff, 0x04, 0x00, 0x00, 0x00,
  0xc0, 0x03, 0x00, 0x00, 0xbc, 0xc0, 0x0c, 0xf3, 0x03, 0xb0, 0x8c, 0x4a,
  0x0a, 0xec, 0x55, 0xad, 0xd2, 0xe6, 0x05, 0x4e, 0xfe, 0x35, 0xf9, 0xf6,
  0xff, 0xee, 0xe8, 0x19, 0xfd, 0x08, 0xf2, 0xda, 0xfc, 0xff, 0xe1, 0x30,
  0xba, 0x12, 0x08, 0xbe, 0x16, 0xf9, 0xed, 0xfa, 0xf5, 0xc8, 0xdb, 0xe9,
  0x03, 0x07, 0x33, 0x2f, 0x08, 0x06, 0x3b, 0x51, 0x20, 0xf6, 0xfb, 0x20,
  0x7f, 0x34, 0x0a, 0xfc, 0x07, 0xfa, 0x07, 0x01, 0x00, 0x3a, 0x8e, 0x26,
  0x01, 0x02, 0xf6, 0x81, 0xf5, 0xff, 0xf3, 0xbe, 0x12, 0x25, 0x05, 0x07,
  0xdd, 0xa9, 0xb6, 0xfe, 0x05, 0x42, 0xb1, 0xd3, 0xfd, 0x01, 0x46, 0x2a,
  0x13, 0xf5, 0xfb, 0xb1, 0x2c, 0xb5, 0xf4, 0xf3, 0xe2, 0x51, 0x1a, 0xf8,
  0x06, 0x48, 0x4e, 0x0b, 0xfd, 0xf0, 0x34, 0x70, 0xfe, 0xff, 0xf1, 0x0e,
  0x4c, 0x27, 0xfd, 0x15, 0xd3, 0x14, 0xf9, 0x01, 0x05, 0x27, 0x0c, 0x11,
  0x00, 0xfc, 0x12, 0x08, 0x01, 0x06, 0x02, 0x1e, 0xe5, 0x29, 0xfe, 0x04,
  0xf9, 0xf4, 0xfe, 0xf5, 0xfc, 0x39, 0xe2, 0xcc, 0x06, 0xfe, 0x13, 0xf1,
  0x0b, 0x07, 0x02, 0x07, 0xfa, 0x1e, 0xf9, 0x01, 0xd9, 0x0e, 0xd9, 0x02,
  0xfc, 0xe1, 0xad, 0xd7, 0x02, 0x00, 0xef, 0xd3, 0x25, 0xf9, 0x06, 0xdc,
  0x81, 0x1b, 0x0d, 0xf7, 0x0a, 0xe6, 0xcc, 0xf7, 0x02, 0xfa, 0xe1, 0x37,
  0xe7, 0x09, 0x44, 0x95, 0x5a, 0x2e, 0xff, 0x53, 0xf0, 0xc1, 0xe9, 0xf5,
  0x24, 0x15, 0x21, 0x0a, 0xfd, 0xea, 0xac, 0xf1, 0x05, 0x04, 0x5f, 0x53,
  0xdf, 0x15, 0x20, 0x30, 0x35, 0xd0, 0xe9, 0x01, 0xb2, 0xf7, 0xbc, 0x41,
  0x15, 0xb6, 0xe6, 0xdd, 0xe2, 0x07, 0xb5, 0xfe, 0x5c, 0xf0, 0x13, 0xe8,
  0x7f, 0x04, 0xeb, 0xf6, 0xed, 0x5e, 0xe2, 0xfd, 0xe8, 0xf1, 0x3a, 0xbf,
  0xef, 0xc8, 0xf9, 0x04, 0xb2, 0xf9, 0xfd, 0x44, 0x47, 0x18, 0x09, 0xde,
  0xcd, 0x47, 0xbe, 0x11, 0xe0, 0x57, 0x16, 0x6d, 0x11, 0x0a, 0xc6, 0xed,
  0xed, 0xfb, 0xde, 0x24, 0x60, 0x38, 0xf7, 0x03, 0x19, 0xb0, 0xc3, 0xeb,
  0xbe, 0x9b, 0xb8, 0x2a, 0xfe, 0xe7, 0x9c, 0x18, 0x44, 0x19, 0xb7, 0x89,
  0x81, 0x09, 0xfe, 0xdb, 0x35, 0x22, 0xf0, 0xfb, 0xee, 0xc6, 0xce, 0x29,
  0x06, 0xee, 0xed, 0x31, 0x1f, 0xff, 0x06, 0xef, 0xf4, 0xe2, 0xf3, 0x05,
  0xce, 0xde, 0x2a, 0x01, 0x04, 0xf3, 0x22, 0xde, 0x02, 0x0b, 0xf7, 0xf9,
  0xdd, 0xf6, 0x05, 0x16, 0xca, 0xd9, 0x04, 0xf8, 0xe9, 0xde, 0x08, 0xf9,
  0x00, 0x1b, 0xaf, 0xe0, 0xfa, 0xf2, 0x3a, 0xbb, 0x2e, 0x0b, 0xe5, 0x28,
  0x81, 0xe7, 0x00, 0x05, 0x40, 0x34, 0xf1, 0xf7, 0xfe, 0xe3, 0xd1, 0xe6,
  0x04, 0x15, 0x3c, 0xd7, 0xf9, 0x20, 0xf4, 0xf1, 0x25, 0x19, 0x05, 0xf8,
  0x3d, 0x15, 0xd7, 0xfd, 0xf6, 0x28, 0x46, 0x37, 0xf8, 0x02, 0xbb, 0xab,
  0x45, 0x08, 0x01, 0xd7, 0xd1, 0x2e, 0x05, 0x01, 0xe1, 0x8b, 0xe7, 0x15,
  0x0d, 0x0c, 0xd7, 0x09, 0xfa, 0x0e, 0xbf, 0x81, 0xdc, 0xf7, 0x1a, 0xe3,
  0xb8, 0xc8, 0xf8, 0x01, 0x20, 0x76, 0x09, 0x07, 0xf0, 0x1c, 0x28, 0x49,
  0x33, 0x0d, 0x13, 0xdc, 0xa0, 0x0d, 0xd4, 0x27, 0x3c, 0xf5, 0x35, 0xff,
  0xea, 0x3f, 0xa4, 0xc7, 0xe9, 0x0c, 0x15, 0x29, 0xd7, 0xe3, 0x55, 0x9d,
  0x47, 0xbb, 0xf1, 0xf3, 0x31, 0xf0, 0x1e, 0xe9, 0xf5, 0xe1, 0x99, 0xe7,
  0x08, 0xc2, 0xb9, 0xf7, 0x0e, 0xec, 0x01, 0x02, 0x7f, 0xca, 0xf0, 0xca,
  0xbc, 0x27, 0x26, 0xf6, 0x19, 0xdf, 0xfc, 0x04, 0xfd, 0x0c, 0x3c, 0xef,
  0x00, 0xfe, 0x15, 0x22, 0xfc, 0xfb, 0xff, 0x1d, 0xf8, 0x2b, 0xff, 0x01,
  0xe3, 0x10, 0xef, 0x00, 0x01, 0x20, 0x49, 0xff, 0x01, 0xff, 0xed, 0x35,
  0xfc, 0xfe, 0x00, 0xe6, 0x4d, 0xd6, 0xff, 0xfe, 0x19, 0x49, 0x01, 0xfc,
  0xff, 0xdd, 0x56, 0x14, 0xff, 0xff, 0xe9, 0x7f, 0xf3, 0x01, 0xfa, 0xf8,
  0x4b, 0x1f, 0xff, 0x01, 0xf5, 0x0c, 0xc0, 0xe7, 0x23, 0xec, 0x24, 0x1b,
  0x09, 0x18, 0xb5, 0x11, 0x68, 0x16, 0x0e, 0x1a, 0xf8, 0xf7, 0x1e, 0xf5,
  0x18, 0xbb, 0xd1, 0xe7, 0xf7, 0xb5, 0x63, 0x20, 0xff, 0xfb, 0xe5, 0x68,
  0x4e, 0x10, 0x08, 0x4d, 0x08, 0x2e, 0x0a, 0x06, 0x51, 0x7f, 0x4c, 0x19,
  0x01, 0x25, 0x6a, 0xb0, 0x0c, 0x2d, 0xdb, 0x4d, 0xde, 0xe7, 0x3e, 0xea,
  0x78, 0xde, 0x18, 0xf5, 0x08, 0x1d, 0x0f, 0xf8, 0xfa, 0xdd, 0xe5, 0x3f,
  0xfc, 0x00, 0xac, 0x1d, 0xbc, 0xfc, 0xe8, 0xd0, 0xe4, 0x17, 0x06, 0xfd,
  0xdb, 0xdc, 0xd3, 0xfc, 0xeb, 0x0e, 0xf9, 0x20, 0xf9, 0xf7, 0x38, 0x31,
  0x2e, 0x02, 0xf6, 0x1d, 0x3f, 0xa6, 0xf8, 0xfe, 0x2c, 0x19, 0xbb, 0x06,
  0xff, 0xd5, 0xbb, 0x3d, 0xfa, 0x06, 0x2b, 0xf3, 0xdd, 0x01, 0x01, 0xbf,
  0x81, 0xcf, 0xfe, 0xf7, 0x0d, 0x31, 0xf2, 0xfd, 0xfa, 0xd8, 0x1c, 0xde,
  0x01, 0xf5, 0x0e, 0x2f, 0x08, 0x05, 0x01, 0xd3, 0x20, 0xd7, 0xf1, 0x05,
  0xd8, 0x13, 0x2a, 0x05, 0xfa, 0x16, 0xfa, 0x0f, 0x05, 0x06, 0x11, 0x43,
  0xec, 0x01, 0xfc, 0xf8, 0x25, 0x1b, 0xfa, 0xfc, 0x04, 0x05, 0xef, 0xfc,
  0xf7, 0x17, 0x44, 0xef, 0x05, 0xf3, 0xe5, 0x2c, 0x25, 0x04, 0xec, 0x2a,
  0x7f, 0xd4, 0x07, 0xfc, 0x19, 0xe7, 0xdf, 0x00, 0xfc, 0x10, 0xd0, 0x23,
  0xfd, 0xf5, 0x2e, 0xdb, 0x15, 0x03, 0xfe, 0x1e, 0x30, 0x09, 0x05, 0xf6,
  0xf9, 0x04, 0x03, 0x08, 0xfa, 0xd4, 0xff, 0x02, 0x04, 0x03, 0xdc, 0x13,
  0x20, 0xfb, 0xf9, 0x0d, 0x43, 0xd8, 0x01, 0x06, 0xe3, 0x1d, 0xe9, 0x00,
  0xff, 0xf1, 0x32, 0xf4, 0xf8, 0xf7, 0xed, 0x48, 0x2f, 0x02, 0xff, 0xe3,
  0x7f, 0xfa, 0xf9, 0xf9, 0x08, 0x13, 0x2f, 0xfe, 0x0e, 0x0d, 0xf7, 0x04,
  0x00, 0x0b, 0xe7, 0xe9, 0xcd, 0xf9, 0x06, 0xe2, 0xd4, 0x06, 0x0d, 0xfb,
  0xd4, 0xc3, 0x13, 0xff, 0x01, 0x19, 0xdc, 0xf1, 0xfd, 0xf9, 0xee, 0xfc,
  0x07, 0x06, 0xfd, 0x08, 0xfc, 0xcc, 0x04, 0x05, 0xee, 0xfe, 0xda, 0x01,
  0xfc, 0x1f, 0xd4, 0x2a, 0x08, 0x0e, 0x1a, 0xa2, 0x26, 0xfc, 0x10, 0x30,
  0x81, 0x22, 0x03, 0xfd, 0xba, 0x1f, 0xe2, 0x11, 0xf5, 0xfb, 0x43, 0xf6,
  0xf2, 0xf6, 0x06, 0x33, 0xe0, 0xed, 0xf5, 0xd4, 0xf5, 0x0a, 0xef, 0x06,
  0xfc, 0xd5, 0xd9, 0x14, 0x09, 0xfe, 0xeb, 0x1e, 0x01, 0x00, 0x2b, 0xaf,
  0x30, 0xf2, 0xfc, 0x29, 0x1f, 0x36, 0xf7, 0xff, 0x26, 0xf6, 0xf1, 0xf5,
  0x07, 0xfa, 0x91, 0xe9, 0xfa, 0xe5, 0xf4, 0x81, 0xe8, 0x09, 0xe2, 0x22,
  0xc4, 0xe8, 0xef, 0x09, 0x3e, 0x1d, 0x71, 0xf2, 0xec, 0xa2, 0x2b, 0xef,
  0x18, 0xe7, 0x51, 0x6c, 0xcd, 0xcc, 0xf0, 0x51, 0xcd, 0xcc, 0xed, 0x10,
  0xbf, 0x53, 0x31, 0xfe, 0xfc, 0x1e, 0xec, 0xae, 0xfc, 0x10, 0x10, 0xce,
  0xfc, 0x04, 0xf5, 0x0d, 0x4d, 0xe8, 0xf3, 0xea, 0x49, 0xf9, 0xcc, 0xbf,
  0x09, 0xda, 0x8a, 0x29, 0x14, 0xeb, 0xa7, 0x9a, 0xd6, 0x21, 0xdf, 0xd1,
  0xcf, 0x7f, 0x1b, 0x12, 0x32, 0xfd, 0xff, 0xff, 0x04, 0x00, 0x00, 0x00,
  0x40, 0x00, 0x00, 0x00, 0xac, 0xfb, 0xff, 0xff, 0x72, 0xfd, 0xff, 0xff,
  0xf5, 0xfe, 0xff, 0xff, 0xbb, 0x01, 0x00, 0x00, 0xfb, 0x07, 0x00, 0x00,
  0xdc, 0xff, 0xff, 0xff, 0x22, 0x01, 0x00, 0x00, 0x97, 0xe5, 0xff, 0xff,
  0x61, 0x0a, 0x00, 0x00, 0xc6, 0x01, 0x00, 0x00, 0x7f, 0xfb, 0xff, 0xff,
  0x9a, 0x00, 0x00, 0x00, 0x4a, 0x04, 0x00, 0x00, 0xd4, 0xff, 0xff, 0xff,
  0x0c, 0x00, 0x00, 0x00, 0xdd, 0x01, 0x00, 0x00, 0x7e, 0xfd, 0xff, 0xff,
  0x04, 0x00, 0x00, 0x00, 0x80, 0x00, 0x00, 0x00, 0xf4, 0x81, 0x42, 0xf6,
  0x23, 0x14, 0x5d, 0x44, 0xda, 0x5e, 0x50, 0xd6, 0x62, 0xd2, 0x70, 0x4f,
  0x06, 0xbc, 0x04, 0xcb, 0xd3, 0x2b, 0xda, 0x1b, 0x7f, 0x48, 0x57, 0x65,
  0x72, 0x99, 0x04, 0xcd, 0x90, 0x3b, 0xd6, 0x4c, 0xd1, 0xf5, 0xbc, 0x00,
  0x8f, 0x83, 0x14, 0xbe, 0x3f, 0x7f, 0xc8, 0x7a, 0xfd, 0x1a, 0x02, 0x45,
  0x2c, 0xb2, 0x62, 0x09, 0x7f, 0x22, 0xbd, 0xb0, 0x05, 0x17, 0x0d, 0x6a,
  0xcb, 0x3c, 0x23, 0x05, 0x81, 0xec, 0xbc, 0xcf, 0xd7, 0xcc, 0x54, 0x06,
  0x37, 0x63, 0xcf, 0x23, 0x19, 0x1d, 0xa9, 0xbb, 0x0d, 0xfc, 0x44, 0xca,
  0x42, 0xe4, 0xd9, 0x81, 0x81, 0xad, 0x3b, 0xd5, 0xac, 0x8b, 0x47, 0xd9,
  0x00, 0xb1, 0xed, 0x95, 0xe7, 0xbc, 0xa9, 0xba, 0xe3, 0xac, 0x81, 0x59,
  0x25, 0x11, 0x64, 0xf2, 0x01, 0x27, 0x70, 0xe0, 0x36, 0xed, 0xe4, 0x97,
  0xa5, 0x7f, 0x40, 0xe4, 0x0a, 0xfe, 0xff, 0xff, 0x04, 0x00, 0x00, 0x00,
  0x20, 0x00, 0x00, 0x00, 0xac, 0x13, 0x00, 0x00, 0x97, 0xff, 0xff, 0xff,
  0xe9, 0x00, 0x00, 0x00, 0xf7, 0x00, 0x00, 0x00, 0xb0, 0x02, 0x00, 0x00,
  0x2c, 0xf1, 0xff, 0xff, 0x01, 0xea, 0xff, 0xff, 0x32, 0xed, 0xff, 0xff,
  0x36, 0xfe, 0xff, 0xff, 0x04, 0x00, 0x00, 0x00, 0x08, 0x00, 0x00, 0x00,
  0xe2, 0x36, 0xbd, 0x28, 0x1c, 0x3b, 0x49, 0x81, 0x4a, 0xfe, 0xff, 0xff,
  0x04, 0x00, 0x00, 0x00, 0x04, 0x00, 0x00, 0x00, 0x5c, 0xf8, 0xff, 0xff,
  0x5a, 0xfe, 0xff, 0xff, 0x04, 0x00, 0x00, 0x00, 0x04, 0x00, 0x00, 0x00,
  0x3c, 0x00, 0x00, 0x00, 0x6a, 0xfe, 0xff, 0xff, 0x04, 0x00, 0x00, 0x00,
  0x04, 0x00, 0x00, 0x00, 0x01, 0x00, 0x00, 0x00, 0x7a, 0xfe, 0xff, 0xff,
  0x04, 0x00, 0x00, 0x00, 0x04, 0x00, 0x00, 0x00, 0x00, 0x00, 0x00, 0x00,
  0xc0, 0xf4, 0xff, 0xff, 0xc4, 0xf4, 0xff, 0xff, 0x0f, 0x00, 0x00, 0x00,
  0x4d, 0x4c, 0x49, 0x52, 0x20, 0x43, 0x6f, 0x6e, 0x76, 0x65, 0x72, 0x74,
  0x65, 0x64, 0x2e, 0x00, 0x01, 0x00, 0x00, 0x00, 0x14, 0x00, 0x00, 0x00,
  0x00, 0x00, 0x0e, 0x00, 0x18, 0x00, 0x14, 0x00, 0x10, 0x00, 0x0c, 0x00,
  0x08, 0x00, 0x04, 0x00, 0x0e, 0x00, 0x00, 0x00, 0x14, 0x00, 0x00, 0x00,
  0x1c, 0x00, 0x00, 0x00, 0xf8, 0x01, 0x00, 0x00, 0xfc, 0x01, 0x00, 0x00,
  0x00, 0x02, 0x00, 0x00, 0x04, 0x00, 0x00, 0x00, 0x6d, 0x61, 0x69, 0x6e,
  0x00, 0x00, 0x00, 0x00, 0x07, 0x00, 0x00, 0x00, 0xa8, 0x01, 0x00, 0x00,
  0x48, 0x01, 0x00, 0x00, 0xf8, 0x00, 0x00, 0x00, 0xd0, 0x00, 0x00, 0x00,
  0x88, 0x00, 0x00, 0x00, 0x3c, 0x00, 0x00, 0x00, 0x04, 0x00, 0x00, 0x00,
  0x92, 0xff, 0xff, 0xff, 0x14, 0x00, 0x00, 0x00, 0x00, 0x00, 0x00, 0x08,
  0x10, 0x00, 0x00, 0x00, 0x14, 0x00, 0x00, 0x00, 0x04, 0x00, 0x00, 0x00,
  0x50, 0xf5, 0xff, 0xff, 0x01, 0x00, 0x00, 0x00, 0x10, 0x00, 0x00, 0x00,
  0x03, 0x00, 0x00, 0x00, 0x0f, 0x00, 0x00, 0x00, 0x05, 0x00, 0x00, 0x00,
  0x04, 0x00, 0x00, 0x00, 0xc6, 0xff, 0xff, 0xff, 0x14, 0x00, 0x00, 0x00,
  0x00, 0x00, 0x00, 0x08, 0x14, 0x00, 0x00, 0x00, 0x18, 0x00, 0x00, 0x00,
  0x04, 0x00, 0x00, 0x00, 0xaa, 0xfe, 0xff, 0xff, 0x00, 0x00, 0x00, 0x01,
  0x01, 0x00, 0x00, 0x00, 0x0f, 0x00, 0x00, 0x00, 0x03, 0x00, 0x00, 0x00,
  0x0e, 0x00, 0x00, 0x00, 0x07, 0x00, 0x00, 0x00, 0x06, 0x00, 0x00, 0x00,
  0x00, 0x00, 0x0e, 0x00, 0x18, 0x00, 0x14, 0x00, 0x10, 0x00, 0x0c, 0x00,
  0x0b, 0x00, 0x04, 0x00, 0x0e, 0x00, 0x00, 0x00, 0x14, 0x00, 0x00, 0x00,
  0x00, 0x00, 0x00, 0x08, 0x14, 0x00, 0x00, 0x00, 0x18, 0x00, 0x00, 0x00,
  0x04, 0x00, 0x00, 0x00, 0xf2, 0xfe, 0xff, 0xff, 0x00, 0x00, 0x00, 0x01,
  0x01, 0x00, 0x00, 0x00, 0x0e, 0x00, 0x00, 0x00, 0x03, 0x00, 0x00, 0x00,
  0x0d, 0x00, 0x00, 0x00, 0x09, 0x00, 0x00, 0x00, 0x08, 0x00, 0x00, 0x00,
  0x00, 0x00, 0x0a, 0x00, 0x10, 0x00, 0x0c, 0x00, 0x08, 0x00, 0x04, 0x00,
  0x0a, 0x00, 0x00, 0x00, 0x0c, 0x00, 0x00, 0x00, 0x10, 0x00, 0x00, 0x00,
  0x03, 0x00, 0x00, 0x00, 0x01, 0x00, 0x00, 0x00, 0x0d, 0x00, 0x00, 0x00,
  0x02, 0x00, 0x00, 0x00, 0x00, 0x00, 0x00, 0x00, 0x0c, 0x00, 0x00, 0x00,
  0xc2, 0xff, 0xff, 0xff, 0x1c, 0x00, 0x00, 0x00, 0x00, 0x00, 0x00, 0x3b,
  0x1c, 0x00, 0x00, 0x00, 0x20, 0x00, 0x00, 0x00, 0x02, 0x00, 0x00, 0x00,
  0x00, 0x00, 0x06, 0x00, 0x08, 0x00, 0x04, 0x00, 0x06, 0x00, 0x00, 0x00,
  0x02, 0x00, 0x00, 0x00, 0x01, 0x00, 0x00, 0x00, 0x0c, 0x00, 0x00, 0x00,
  0x02, 0x00, 0x00, 0x00, 0x0b, 0x00, 0x00, 0x00, 0x03, 0x00, 0x00, 0x00,
  0x00, 0x00, 0x0e, 0x00, 0x1a, 0x00, 0x14, 0x00, 0x10, 0x00, 0x0c, 0x00,
  0x0b, 0x00, 0x04, 0x00, 0x0e, 0x00, 0x00, 0x00, 0x24, 0x00, 0x00, 0x00,
  0x00, 0x00, 0x00, 0x20, 0x24, 0x00, 0x00, 0x00, 0x28, 0x00, 0x00, 0x00,
  0x01, 0x00, 0x00, 0x00, 0x00, 0x00, 0x0e, 0x00, 0x08, 0x00, 0x00, 0x00,
  0x00, 0x00, 0x00, 0x00, 0x00, 0x00, 0x04, 0x00, 0x0e, 0x00, 0x00, 0x00,
  0x01, 0x00, 0x00, 0x00, 0x01, 0x00, 0x00, 0x00, 0x0b, 0x00, 0x00, 0x00,
  0x04, 0x00, 0x00, 0x00, 0x0a, 0x00, 0x00, 0x00, 0x01, 0x00, 0x00, 0x00,
  0x02, 0x00, 0x00, 0x00, 0x02, 0x00, 0x00, 0x00, 0x00, 0x00, 0x0e, 0x00,
  0x16, 0x00, 0x00, 0x00, 0x10, 0x00, 0x0c, 0x00, 0x0b, 0x00, 0x04, 0x00,
  0x0e, 0x00, 0x00, 0x00, 0x18, 0x00, 0x00, 0x00, 0x00, 0x00, 0x00, 0x37,
  0x18, 0x00, 0x00, 0x00, 0x1c, 0x00, 0x00, 0x00, 0x00, 0x00, 0x06, 0x00,
  0x08, 0x00, 0x07, 0x00, 0x06, 0x00, 0x00, 0x00, 0x00, 0x00, 0x00, 0x02,
  0x01, 0x00, 0x00, 0x00, 0x0a, 0x00, 0x00, 0x00, 0x01, 0x00, 0x00, 0x00,
  0x00, 0x00, 0x00, 0x00, 0x01, 0x00, 0x00, 0x00, 0x10, 0x00, 0x00, 0x00,
  0x01, 0x00, 0x00, 0x00, 0x00, 0x00, 0x00, 0x00, 0x11, 0x00, 0x00, 0x00,
  0x4c, 0x09, 0x00, 0x00, 0xd4, 0x08, 0x00, 0x00, 0x7c, 0x08, 0x00, 0x00,
  0x28, 0x08, 0x00, 0x00, 0xbc, 0x07, 0x00, 0x00, 0x50, 0x07, 0x00, 0x00,
  0x74, 0x06, 0x00, 0x00, 0xb0, 0x05, 0x00, 0x00, 0x7c, 0x04, 0x00, 0x00,
  0x58, 0x03, 0x00, 0x00, 0x0c, 0x03, 0x00, 0x00, 0xbc, 0x02, 0x00, 0x00,
  0x68, 0x02, 0x00, 0x00, 0xe8, 0x01, 0x00, 0x00, 0x34, 0x01, 0x00, 0x00,
  0x80, 0x00, 0x00, 0x00, 0x04, 0x00, 0x00, 0x00, 0x0e, 0xf7, 0xff, 0xff,
  0x00, 0x00, 0x00, 0x01, 0x18, 0x00, 0x00, 0x00, 0x20, 0x00, 0x00, 0x00,
  0x3c, 0x00, 0x00, 0x00, 0x11, 0x00, 0x00, 0x00, 0x00, 0x00, 0x00, 0x09,
  0x50, 0x00, 0x00, 0x00, 0x02, 0x00, 0x00, 0x00, 0xff, 0xff, 0xff, 0xff,
  0x01, 0x00, 0x00, 0x00, 0xf4, 0xf6, 0xff, 0xff, 0x08, 0x00, 0x00, 0x00,
  0x10, 0x00, 0x00, 0x00, 0x01, 0x00, 0x00, 0x00, 0x7f, 0x00, 0x00, 0x00,
  0x00, 0x00, 0x00, 0x00, 0x01, 0x00, 0x00, 0x00, 0x44, 0xc9, 0x86, 0x3b,
  0x1b, 0x00, 0x00, 0x00, 0x53, 0x74, 0x61, 0x74, 0x65, 0x66, 0x75, 0x6c,
  0x50, 0x61, 0x72, 0x74, 0x69, 0x74, 0x69, 0x6f, 0x6e, 0x65, 0x64, 0x43,
  0x61, 0x6c, 0x6c, 0x5f, 0x31, 0x3a, 0x30, 0x00, 0x02, 0x00, 0x00, 0x00,
  0x01, 0x00, 0x00, 0x00, 0x01, 0x00, 0x00, 0x00, 0x86, 0xf7, 0xff, 0xff,
  0x00, 0x00, 0x00, 0x01, 0x18, 0x00, 0x00, 0x00, 0x20, 0x00, 0x00, 0x00,
  0x3c, 0x00, 0x00, 0x00, 0x10, 0x00, 0x00, 0x00, 0x00, 0x00, 0x00, 0x09,
  0x88, 0x00, 0x00, 0x00, 0x02, 0x00, 0x00, 0x00, 0xff, 0xff, 0xff, 0xff,
  0x08, 0x00, 0x00, 0x00, 0x6c, 0xf7, 0xff, 0xff, 0x08, 0x00, 0x00, 0x00,
  0x10, 0x00, 0x00, 0x00, 0x01, 0x00, 0x00, 0x00, 0x80, 0xff, 0xff, 0xff,
  0xff, 0xff, 0xff, 0xff, 0x01, 0x00, 0x00, 0x00, 0xdc, 0x95, 0xda, 0x3b,
  0x52, 0x00, 0x00, 0x00, 0x74, 0x69, 0x6e, 0x79, 0x5f, 0x6d, 0x6c, 0x70,
  0x5f, 0x31, 0x2f, 0x64, 0x65, 0x6e, 0x73, 0x65, 0x5f, 0x31, 0x5f, 0x32,
  0x2f, 0x4d, 0x61, 0x74, 0x4d, 0x75, 0x6c, 0x3b, 0x74, 0x69, 0x6e, 0x79,
  0x5f, 0x6d, 0x6c, 0x70, 0x5f, 0x31, 0x2f, 0x64, 0x65, 0x6e, 0x73, 0x65,
  0x5f, 0x31, 0x5f, 0x32, 0x2f, 0x52, 0x65, 0x6c, 0x75, 0x3b, 0x74, 0x69,
  0x6e, 0x79, 0x5f, 0x6d, 0x6c, 0x70, 0x5f, 0x31, 0x2f, 0x64, 0x65, 0x6e,
  0x73, 0x65, 0x5f, 0x31, 0x5f, 0x32, 0x2f, 0x42, 0x69, 0x61, 0x73, 0x41,
  0x64, 0x64, 0x00, 0x00, 0x02, 0x00, 0x00, 0x00, 0x01, 0x00, 0x00, 0x00,
  0x08, 0x00, 0x00, 0x00, 0x36, 0xf8, 0xff, 0xff, 0x00, 0x00, 0x00, 0x01,
  0x18, 0x00, 0x00, 0x00, 0x20, 0x00, 0x00, 0x00, 0x40, 0x00, 0x00, 0x00,
  0x0f, 0x00, 0x00, 0x00, 0x00, 0x00, 0x00, 0x09, 0x88, 0x00, 0x00, 0x00,
  0x02, 0x00, 0x00, 0x00, 0xff, 0xff, 0xff, 0xff, 0x10, 0x00, 0x00, 0x00,
  0x1c, 0xf8, 0xff, 0xff, 0x08, 0x00, 0x00, 0x00, 0x14, 0x00, 0x00, 0x00,
  0x01, 0x00, 0x00, 0x00, 0x80, 0xff, 0xff, 0xff, 0xff, 0xff, 0xff, 0xff,
  0x00, 0x00, 0x00, 0x00, 0x01, 0x00, 0x00, 0x00, 0x9d, 0xe4, 0x2f, 0x3c,
  0x4c, 0x00, 0x00, 0x00, 0x74, 0x69, 0x6e, 0x79, 0x5f, 0x6d, 0x6c, 0x70,
  0x5f, 0x31, 0x2f, 0x64, 0x65, 0x6e, 0x73, 0x65, 0x5f, 0x31, 0x2f, 0x4d,
  0x61, 0x74, 0x4d, 0x75, 0x6c, 0x3b, 0x74, 0x69, 0x6e, 0x79, 0x5f, 0x6d,
  0x6c, 0x70, 0x5f, 0x31, 0x2f, 0x64, 0x65, 0x6e, 0x73, 0x65, 0x5f, 0x31,
  0x2f, 0x52, 0x65, 0x6c, 0x75, 0x3b, 0x74, 0x69, 0x6e, 0x79, 0x5f, 0x6d,
  0x6c, 0x70, 0x5f, 0x31, 0x2f, 0x64, 0x65, 0x6e, 0x73, 0x65, 0x5f, 0x31,
  0x2f, 0x42, 0x69, 0x61, 0x73, 0x41, 0x64, 0x64, 0x00, 0x00, 0x00, 0x00,
  0x02, 0x00, 0x00, 0x00, 0x01, 0x00, 0x00, 0x00, 0x10, 0x00, 0x00, 0x00,
  0xe6, 0xf8, 0xff, 0xff, 0x00, 0x00, 0x00, 0x01, 0x18, 0x00, 0x00, 0x00,
  0x20, 0x00, 0x00, 0x00, 0x3c, 0x00, 0x00, 0x00, 0x0e, 0x00, 0x00, 0x00,
  0x00, 0x00, 0x00, 0x09, 0x54, 0x00, 0x00, 0x00, 0x02, 0x00, 0x00, 0x00,
  0xff, 0xff, 0xff, 0xff, 0x3c, 0x00, 0x00, 0x00, 0xcc, 0xf8, 0xff, 0xff,
  0x08, 0x00, 0x00, 0x00, 0x10, 0x00, 0x00, 0x00, 0x01, 0x00, 0x00, 0x00,
  0xe3, 0xff, 0xff, 0xff, 0xff, 0xff, 0xff, 0xff, 0x01, 0x00, 0x00, 0x00,
  0x49, 0x55, 0xb8, 0x3c, 0x1c, 0x00, 0x00, 0x00, 0x74, 0x69, 0x6e, 0x79,
  0x5f, 0x6d, 0x6c, 0x70, 0x5f, 0x31, 0x2f, 0x66, 0x6c, 0x61, 0x74, 0x74,
  0x65, 0x6e, 0x5f, 0x31, 0x2f, 0x52, 0x65, 0x73, 0x68, 0x61, 0x70, 0x65,
  0x00, 0x00, 0x00, 0x00, 0x02, 0x00, 0x00, 0x00, 0x01, 0x00, 0x00, 0x00,
  0x3c, 0x00, 0x00, 0x00, 0xd6, 0xf9, 0xff, 0xff, 0x00, 0x00, 0x00, 0x01,
  0x14, 0x00, 0x00, 0x00, 0x14, 0x00, 0x00, 0x00, 0x0d, 0x00, 0x00, 0x00,
  0x00, 0x00, 0x00, 0x02, 0x30, 0x00, 0x00, 0x00, 0xc0, 0xf9, 0xff, 0xff,
  0x22, 0x00, 0x00, 0x00, 0x74, 0x69, 0x6e, 0x79, 0x5f, 0x6d, 0x6c, 0x70,
  0x5f, 0x31, 0x2f, 0x66, 0x6c, 0x61, 0x74, 0x74, 0x65, 0x6e, 0x5f, 0x31,
  0x2f, 0x52, 0x65, 0x73, 0x68, 0x61, 0x70, 0x65, 0x2f, 0x73, 0x68, 0x61,
  0x70, 0x65, 0x00, 0x00, 0x01, 0x00, 0x00, 0x00, 0x02, 0x00, 0x00, 0x00,
  0x26, 0xfa, 0xff, 0xff, 0x00, 0x00, 0x00, 0x01, 0x14, 0x00, 0x00, 0x00,
  0x14, 0x00, 0x00, 0x00, 0x0c, 0x00, 0x00, 0x00, 0x00, 0x00, 0x00, 0x02,
  0x30, 0x00, 0x00, 0x00, 0x10, 0xfa, 0xff, 0xff, 0x22, 0x00, 0x00, 0x00,
  0x74, 0x69, 0x6e, 0x79, 0x5f, 0x6d, 0x6c, 0x70, 0x5f, 0x31, 0x2f, 0x66,
  0x6c, 0x61, 0x74, 0x74, 0x65, 0x6e, 0x5f, 0x31, 0x2f, 0x73, 0x74, 0x72,
  0x69, 0x64, 0x65, 0x64, 0x5f, 0x73, 0x6c, 0x69, 0x63, 0x65, 0x00, 0x00,
  0x00, 0x00, 0x00, 0x00, 0x72, 0xfa, 0xff, 0xff, 0x00, 0x00, 0x00, 0x01,
  0x14, 0x00, 0x00, 0x00, 0x14, 0x00, 0x00, 0x00, 0x0b, 0x00, 0x00, 0x00,
  0x00, 0x00, 0x00, 0x02, 0x28, 0x00, 0x00, 0x00, 0x5c, 0xfa, 0xff, 0xff,
  0x1a, 0x00, 0x00, 0x00, 0x74, 0x69, 0x6e, 0x79, 0x5f, 0x6d, 0x6c, 0x70,
  0x5f, 0x31, 0x2f, 0x66, 0x6c, 0x61, 0x74, 0x74, 0x65, 0x6e, 0x5f, 0x31,
  0x2f, 0x53, 0x68, 0x61, 0x70, 0x65, 0x00, 0x00, 0x01, 0x00, 0x00, 0x00,
  0x03, 0x00, 0x00, 0x00, 0xba, 0xfa, 0xff, 0xff, 0x00, 0x00, 0x00, 0x01,
  0x14, 0x00, 0x00, 0x00, 0xe8, 0x00, 0x00, 0x00, 0x0a, 0x00, 0x00, 0x00,
  0x00, 0x00, 0x00, 0x09, 0xfc, 0x00, 0x00, 0x00, 0x1c, 0xfa, 0xff, 0xff,
  0x08, 0x00, 0x00, 0x00, 0x8c, 0x00, 0x00, 0x00, 0x10, 0x00, 0x00, 0x00,
  0x00, 0x00, 0x00, 0x00, 0x00, 0x00, 0x00, 0x00, 0x00, 0x00, 0x00, 0x00,
  0x00, 0x00, 0x00, 0x00, 0x00, 0x00, 0x00, 0x00, 0x00, 0x00, 0x00, 0x00,
  0x00, 0x00, 0x00, 0x00, 0x00, 0x00, 0x00, 0x00, 0x00, 0x00, 0x00, 0x00,
  0x00, 0x00, 0x00, 0x00, 0x00, 0x00, 0x00, 0x00, 0x00, 0x00, 0x00, 0x00,
  0x00, 0x00, 0x00, 0x00, 0x00, 0x00, 0x00, 0x00, 0x00, 0x00, 0x00, 0x00,
  0x00, 0x00, 0x00, 0x00, 0x00, 0x00, 0x00, 0x00, 0x00, 0x00, 0x00, 0x00,
  0x00, 0x00, 0x00, 0x00, 0x00, 0x00, 0x00, 0x00, 0x00, 0x00, 0x00, 0x00,
  0x00, 0x00, 0x00, 0x00, 0x00, 0x00, 0x00, 0x00, 0x00, 0x00, 0x00, 0x00,
  0x00, 0x00, 0x00, 0x00, 0x00, 0x00, 0x00, 0x00, 0x00, 0x00, 0x00, 0x00,
  0x00, 0x00, 0x00, 0x00, 0x00, 0x00, 0x00, 0x00, 0x00, 0x00, 0x00, 0x00,
  0x00, 0x00, 0x00, 0x00, 0x00, 0x00, 0x00, 0x00, 0x00, 0x00, 0x00, 0x00,
  0x10, 0x00, 0x00, 0x00, 0x01, 0xb4, 0x4d, 0x3b, 0x10, 0x93, 0x59, 0x3b,
  0xa0, 0x1e, 0xaa, 0x3b, 0x61, 0x2f, 0x4f, 0x3b, 0x1e, 0x59, 0x38, 0x3b,
  0x07, 0x21, 0x95, 0x3b, 0x4b, 0xdf, 0x70, 0x3b, 0x38, 0x36, 0x1d, 0x3b,
  0x5f, 0xdf, 0xac, 0x3b, 0x02, 0xba, 0x2c, 0x3b, 0xcd, 0x85, 0x78, 0x3b,
  0x6b, 0x47, 0xa6, 0x3b, 0x75, 0xe0, 0xa0, 0x3b, 0xf5, 0xe9, 0x96, 0x3b,
  0x54, 0x54, 0x88, 0x3b, 0x00, 0x33, 0x33, 0x3b, 0x19, 0x00, 0x00, 0x00,
  0x74, 0x69, 0x6e, 0x79, 0x5f, 0x6d, 0x6c, 0x70, 0x5f, 0x31, 0x2f, 0x64,
  0x65, 0x6e, 0x73, 0x65, 0x5f, 0x31, 0x2f, 0x4d, 0x61, 0x74, 0x4d, 0x75,
  0x6c, 0x00, 0x00, 0x00, 0x02, 0x00, 0x00, 0x00, 0x10, 0x00, 0x00, 0x00,
  0x3c, 0x00, 0x00, 0x00, 0xda, 0xfb, 0xff, 0xff, 0x00, 0x00, 0x00, 0x01,
  0x14, 0x00, 0x00, 0x00, 0xe4, 0x00, 0x00, 0x00, 0x09, 0x00, 0x00, 0x00,
  0x00, 0x00, 0x00, 0x02, 0x10, 0x01, 0x00, 0x00, 0x3c, 0xfb, 0xff, 0xff,
  0x08, 0x00, 0x00, 0x00, 0x88, 0x00, 0x00, 0x00, 0x10, 0x00, 0x00, 0x00,
  0x00, 0x00, 0x00, 0x00, 0x00, 0x00, 0x00, 0x00, 0x00, 0x00, 0x00, 0x00,
  0x00, 0x00, 0x00, 0x00, 0x00, 0x00, 0x00, 0x00, 0x00, 0x00, 0x00, 0x00,
  0x00, 0x00, 0x00, 0x00, 0x00, 0x00, 0x00, 0x00, 0x00, 0x00, 0x00, 0x00,
  0x00, 0x00, 0x00, 0x00, 0x00, 0x00, 0x00, 0x00, 0x00, 0x00, 0x00, 0x00,
  0x00, 0x00, 0x00, 0x00, 0x00, 0x00, 0x00, 0x00, 0x00, 0x00, 0x00, 0x00,
  0x00, 0x00, 0x00, 0x00, 0x00, 0x00, 0x00, 0x00, 0x00, 0x00, 0x00, 0x00,
  0x00, 0x00, 0x00, 0x00, 0x00, 0x00, 0x00, 0x00, 0x00, 0x00, 0x00, 0x00,
  0x00, 0x00, 0x00, 0x00, 0x00, 0x00, 0x00, 0x00, 0x00, 0x00, 0x00, 0x00,
  0x00, 0x00, 0x00, 0x00, 0x00, 0x00, 0x00, 0x00, 0x00, 0x00, 0x00, 0x00,
  0x00, 0x00, 0x00, 0x00, 0x00, 0x00, 0x00, 0x00, 0x00, 0x00, 0x00, 0x00,
  0x00, 0x00, 0x00, 0x00, 0x00, 0x00, 0x00, 0x00, 0x10, 0x00, 0x00, 0x00,
  0xe8, 0x1d, 0x94, 0x38, 0x2f, 0xaa, 0x9c, 0x38, 0x5f, 0xfd, 0xf4, 0x38,
  0x14, 0x2f, 0x95, 0x38, 0x78, 0xbd, 0x84, 0x38, 0xd7, 0xc2, 0xd6, 0x38,
  0xbd, 0x70, 0xad, 0x38, 0xb0, 0x66, 0x62, 0x38, 0x47, 0xf4, 0xf8, 0x38,
  0x79, 0xbe, 0x78, 0x38, 0xf7, 0xf2, 0xb2, 0x38, 0x74, 0x75, 0xef, 0x38,
  0xd9, 0xad, 0xe7, 0x38, 0xde, 0x54, 0xd9, 0x38, 0x0e, 0x54, 0xc4, 0x38,
  0x5b, 0x08, 0x81, 0x38, 0x32, 0x00, 0x00, 0x00, 0x74, 0x69, 0x6e, 0x79,
  0x5f, 0x6d, 0x6c, 0x70, 0x5f, 0x31, 0x2f, 0x64, 0x65, 0x6e, 0x73, 0x65,
  0x5f, 0x31, 0x2f, 0x52, 0x65, 0x6c, 0x75, 0x3b, 0x74, 0x69, 0x6e, 0x79,
  0x5f, 0x6d, 0x6c, 0x70, 0x5f, 0x31, 0x2f, 0x64, 0x65, 0x6e, 0x73, 0x65,
  0x5f, 0x31, 0x2f, 0x42, 0x69, 0x61, 0x73, 0x41, 0x64, 0x64, 0x00, 0x00,
  0x01, 0x00, 0x00, 0x00, 0x10, 0x00, 0x00, 0x00, 0x0a, 0xfd, 0xff, 0xff,
  0x00, 0x00, 0x00, 0x01, 0x14, 0x00, 0x00, 0x00, 0x88, 0x00, 0x00, 0x00,
  0x08, 0x00, 0x00, 0x00, 0x00, 0x00, 0x00, 0x09, 0x9c, 0x00, 0x00, 0x00,
  0x6c, 0xfc, 0xff, 0xff, 0x08, 0x00, 0x00, 0x00, 0x4c, 0x00, 0x00, 0x00,
  0x08, 0x00, 0x00, 0x00, 0x00, 0x00, 0x00, 0x00, 0x00, 0x00, 0x00, 0x00,
  0x00, 0x00, 0x00, 0x00, 0x00, 0x00, 0x00, 0x00, 0x00, 0x00, 0x00, 0x00,
  0x00, 0x00, 0x00, 0x00, 0x00, 0x00, 0x00, 0x00, 0x00, 0x00, 0x00, 0x00,
  0x00, 0x00, 0x00, 0x00, 0x00, 0x00, 0x00, 0x00, 0x00, 0x00, 0x00, 0x00,
  0x00, 0x00, 0x00, 0x00, 0x00, 0x00, 0x00, 0x00, 0x00, 0x00, 0x00, 0x00,
  0x00, 0x00, 0x00, 0x00, 0x00, 0x00, 0x00, 0x00, 0x00, 0x00, 0x00, 0x00,
  0x08, 0x00, 0x00, 0x00, 0x65, 0xd0, 0x50, 0x3b, 0xf2, 0xb8, 0x63, 0x3b,
  0xc2, 0x69, 0x40, 0x3b, 0x8f, 0xe3, 0x7a, 0x3b, 0x1f, 0x01, 0xa4, 0x3b,
  0x69, 0x14, 0x81, 0x3b, 0xd4, 0x48, 0x7f, 0x3b, 0x56, 0x2a, 0x1a, 0x3b,
  0x1b, 0x00, 0x00, 0x00, 0x74, 0x69, 0x6e, 0x79, 0x5f, 0x6d, 0x6c, 0x70,
  0x5f, 0x31, 0x2f, 0x64, 0x65, 0x6e, 0x73, 0x65, 0x5f, 0x31, 0x5f, 0x32,
  0x2f, 0x4d, 0x61, 0x74, 0x4d, 0x75, 0x6c, 0x00, 0x02, 0x00, 0x00, 0x00,
  0x08, 0x00, 0x00, 0x00, 0x10, 0x00, 0x00, 0x00, 0xca, 0xfd, 0xff, 0xff,
  0x00, 0x00, 0x00, 0x01, 0x14, 0x00, 0x00, 0x00, 0x88, 0x00, 0x00, 0x00,
  0x07, 0x00, 0x00, 0x00, 0x00, 0x00, 0x00, 0x02, 0xb8, 0x00, 0x00, 0x00,
  0x2c, 0xfd, 0xff, 0xff, 0x08, 0x00, 0x00, 0x00, 0x4c, 0x00, 0x00, 0x00,
  0x08, 0x00, 0x00, 0x00, 0x00, 0x00, 0x00, 0x00, 0x00, 0x00, 0x00, 0x00,
  0x00, 0x00, 0x00, 0x00, 0x00, 0x00, 0x00, 0x00, 0x00, 0x00, 0x00, 0x00,
  0x00, 0x00, 0x00, 0x00, 0x00, 0x00, 0x00, 0x00, 0x00, 0x00, 0x00, 0x00,
  0x00, 0x00, 0x00, 0x00, 0x00, 0x00, 0x00, 0x00, 0x00, 0x00, 0x00, 0x00,
  0x00, 0x00, 0x00, 0x00, 0x00, 0x00, 0x00, 0x00, 0x00, 0x00, 0x00, 0x00,
  0x00, 0x00, 0x00, 0x00, 0x00, 0x00, 0x00, 0x00, 0x00, 0x00, 0x00, 0x00,
  0x08, 0x00, 0x00, 0x00, 0xef, 0x78, 0x0f, 0x38, 0xca, 0x76, 0x1c, 0x38,
  0x20, 0x34, 0x04, 0x38, 0x9b, 0x61, 0x2c, 0x38, 0x74, 0x5e, 0x61, 0x38,
  0x72, 0x60, 0x31, 0x38, 0xc2, 0x66, 0x2f, 0x38, 0x3a, 0xd9, 0xd3, 0x37,
  0x36, 0x00, 0x00, 0x00, 0x74, 0x69, 0x6e, 0x79, 0x5f, 0x6d, 0x6c, 0x70,
  0x5f, 0x31, 0x2f, 0x64, 0x65, 0x6e, 0x73, 0x65, 0x5f, 0x31, 0x5f, 0x32,
  0x2f, 0x52, 0x65, 0x6c, 0x75, 0x3b, 0x74, 0x69, 0x6e, 0x79, 0x5f, 0x6d,
  0x6c, 0x70, 0x5f, 0x31, 0x2f, 0x64, 0x65, 0x6e, 0x73, 0x65, 0x5f, 0x31,
  0x5f, 0x32, 0x2f, 0x42, 0x69, 0x61, 0x73, 0x41, 0x64, 0x64, 0x00, 0x00,
  0x01, 0x00, 0x00, 0x00, 0x08, 0x00, 0x00, 0x00, 0xa2, 0xfe, 0xff, 0xff,
  0x00, 0x00, 0x00, 0x01, 0x14, 0x00, 0x00, 0x00, 0x30, 0x00, 0x00, 0x00,
  0x06, 0x00, 0x00, 0x00, 0x00, 0x00, 0x00, 0x09, 0x44, 0x00, 0x00, 0x00,
  0x04, 0xfe, 0xff, 0xff, 0x08, 0x00, 0x00, 0x00, 0x10, 0x00, 0x00, 0x00,
  0x01, 0x00, 0x00, 0x00, 0x00, 0x00, 0x00, 0x00, 0x00, 0x00, 0x00, 0x00,
  0x01, 0x00, 0x00, 0x00, 0x4e, 0xe5, 0x94, 0x3b, 0x1b, 0x00, 0x00, 0x00,
  0x74, 0x69, 0x6e, 0x79, 0x5f, 0x6d, 0x6c, 0x70, 0x5f, 0x31, 0x2f, 0x64,
  0x65, 0x6e, 0x73, 0x65, 0x5f, 0x32, 0x5f, 0x31, 0x2f, 0x4d, 0x61, 0x74,
  0x4d, 0x75, 0x6c, 0x00, 0x02, 0x00, 0x00, 0x00, 0x01, 0x00, 0x00, 0x00,
  0x08, 0x00, 0x00, 0x00, 0x0a, 0xff, 0xff, 0xff, 0x00, 0x00, 0x00, 0x01,
  0x14, 0x00, 0x00, 0x00, 0x34, 0x00, 0x00, 0x00, 0x05, 0x00, 0x00, 0x00,
  0x00, 0x00, 0x00, 0x02, 0x48, 0x00, 0x00, 0x00, 0x6c, 0xfe, 0xff, 0xff,
  0x08, 0x00, 0x00, 0x00, 0x14, 0x00, 0x00, 0x00, 0x01, 0x00, 0x00, 0x00,
  0x00, 0x00, 0x00, 0x00, 0x00, 0x00, 0x00, 0x00, 0x00, 0x00, 0x00, 0x00,
  0x01, 0x00, 0x00, 0x00, 0xdc, 0x44, 0xfe, 0x37, 0x18, 0x00, 0x00, 0x00,
  0x74, 0x69, 0x6e, 0x79, 0x5f, 0x6d, 0x6c, 0x70, 0x5f, 0x31, 0x2f, 0x64,
  0x65, 0x6e, 0x73, 0x65, 0x5f, 0x32, 0x5f, 0x31, 0x2f, 0x41, 0x64, 0x64,
  0x00, 0x00, 0x00, 0x00, 0x01, 0x00, 0x00, 0x00, 0x01, 0x00, 0x00, 0x00,
  0x72, 0xff, 0xff, 0xff, 0x00, 0x00, 0x00, 0x01, 0x14, 0x00, 0x00, 0x00,
  0x14, 0x00, 0x00, 0x00, 0x04, 0x00, 0x00, 0x00, 0x00, 0x00, 0x00, 0x02,
  0x34, 0x00, 0x00, 0x00, 0x5c, 0xff, 0xff, 0xff, 0x24, 0x00, 0x00, 0x00,
  0x74, 0x69, 0x6e, 0x79, 0x5f, 0x6d, 0x6c, 0x70, 0x5f, 0x31, 0x2f, 0x66,
  0x6c, 0x61, 0x74, 0x74, 0x65, 0x6e, 0x5f, 0x31, 0x2f, 0x52, 0x65, 0x73,
  0x68, 0x61, 0x70, 0x65, 0x2f, 0x73, 0x68, 0x61, 0x70, 0x65, 0x2f, 0x31,
  0x00, 0x00, 0x00, 0x00, 0x00, 0x00, 0x00, 0x00, 0xc2, 0xff, 0xff, 0xff,
  0x00, 0x00, 0x00, 0x01, 0x14, 0x00, 0x00, 0x00, 0x14, 0x00, 0x00, 0x00,
  0x03, 0x00, 0x00, 0x00, 0x00, 0x00, 0x00, 0x02, 0x1c, 0x00, 0x00, 0x00,
  0xac, 0xff, 0xff, 0xff, 0x0e, 0x00, 0x00, 0x00, 0x61, 0x72, 0x69, 0x74,
  0x68, 0x2e, 0x63, 0x6f, 0x6e, 0x73, 0x74, 0x61, 0x6e, 0x74, 0x00, 0x00,
  0x01, 0x00, 0x00, 0x00, 0x01, 0x00, 0x00, 0x00, 0x00, 0x00, 0x16, 0x00,
  0x1c, 0x00, 0x18, 0x00, 0x17, 0x00, 0x10, 0x00, 0x0c, 0x00, 0x08, 0x00,
  0x00, 0x00, 0x00, 0x00, 0x00, 0x00, 0x07, 0x00, 0x16, 0x00, 0x00, 0x00,
  0x00, 0x00, 0x00, 0x01, 0x18, 0x00, 0x00, 0x00, 0x18, 0x00, 0x00, 0x00,
  0x02, 0x00, 0x00, 0x00, 0x00, 0x00, 0x00, 0x02, 0x3c, 0x00, 0x00, 0x00,
  0x04, 0x00, 0x04, 0x00, 0x04, 0x00, 0x00, 0x00, 0x28, 0x00, 0x00, 0x00,
  0x74, 0x69, 0x6e, 0x79, 0x5f, 0x6d, 0x6c, 0x70, 0x5f, 0x31, 0x2f, 0x66,
  0x6c, 0x61, 0x74, 0x74, 0x65, 0x6e, 0x5f, 0x31, 0x2f, 0x73, 0x74, 0x72,
  0x69, 0x64, 0x65, 0x64, 0x5f, 0x73, 0x6c, 0x69, 0x63, 0x65, 0x2f, 0x73,
  0x74, 0x61, 0x63, 0x6b, 0x00, 0x00, 0x00, 0x00, 0x01, 0x00, 0x00, 0x00,
  0x01, 0x00, 0x00, 0x00, 0x00, 0x00, 0x16, 0x00, 0x20, 0x00, 0x1c, 0x00,
  0x1b, 0x00, 0x14, 0x00, 0x10, 0x00, 0x0c, 0x00, 0x00, 0x00, 0x00, 0x00,
  0x08, 0x00, 0x07, 0x00, 0x16, 0x00, 0x00, 0x00, 0x00, 0x00, 0x00, 0x01,
  0x18, 0x00, 0x00, 0x00, 0x30, 0x00, 0x00, 0x00, 0x50, 0x00, 0x00, 0x00,
  0x01, 0x00, 0x00, 0x00, 0x00, 0x00, 0x00, 0x09, 0x68, 0x00, 0x00, 0x00,
  0x03, 0x00, 0x00, 0x00, 0xff, 0xff, 0xff, 0xff, 0x0c, 0x00, 0x00, 0x00,
  0x05, 0x00, 0x00, 0x00, 0x0c, 0x00, 0x0c, 0x00, 0x00, 0x00, 0x00, 0x00,
  0x08, 0x00, 0x04, 0x00, 0x0c, 0x00, 0x00, 0x00, 0x08, 0x00, 0x00, 0x00,
  0x14, 0x00, 0x00, 0x00, 0x01, 0x00, 0x00, 0x00, 0xe3, 0xff, 0xff, 0xff,
  0xff, 0xff, 0xff, 0xff, 0x00, 0x00, 0x00, 0x00, 0x01, 0x00, 0x00, 0x00,
  0x49, 0x55, 0xb8, 0x3c, 0x1e, 0x00, 0x00, 0x00, 0x73, 0x65, 0x72, 0x76,
  0x69, 0x6e, 0x67, 0x5f, 0x64, 0x65, 0x66, 0x61, 0x75, 0x6c, 0x74, 0x5f,
  0x6b, 0x65, 0x72, 0x61, 0x73, 0x5f, 0x74, 0x65, 0x6e, 0x73, 0x6f, 0x72,
  0x3a, 0x30, 0x00, 0x00, 0x03, 0x00, 0x00, 0x00, 0x01, 0x00, 0x00, 0x00,
  0x0c, 0x00, 0x00, 0x00, 0x05, 0x00, 0x00, 0x00, 0x05, 0x00, 0x00, 0x00,
  0x60, 0x00, 0x00, 0x00, 0x44, 0x00, 0x00, 0x00, 0x34, 0x00, 0x00, 0x00,
  0x24, 0x00, 0x00, 0x00, 0x10, 0x00, 0x00, 0x00, 0x0c, 0x00, 0x10, 0x00,
  0x0f, 0x00, 0x00, 0x00, 0x08, 0x00, 0x04, 0x00, 0x0c, 0x00, 0x00, 0x00,
  0x09, 0x00, 0x00, 0x00, 0x04, 0x00, 0x00, 0x00, 0x00, 0x00, 0x00, 0x09,
  0xdc, 0xff, 0xff, 0xff, 0x16, 0x00, 0x00, 0x00, 0x00, 0x00, 0x00, 0x16,
  0xe8, 0xff, 0xff, 0xff, 0x53, 0x00, 0x00, 0x00, 0x00, 0x00, 0x00, 0x53,
  0xf4, 0xff, 0xff, 0xff, 0x2d, 0x00, 0x00, 0x00, 0x00, 0x00, 0x00, 0x2d,
  0x0c, 0x00, 0x0c, 0x00, 0x0b, 0x00, 0x00, 0x00, 0x00, 0x00, 0x04, 0x00,
  0x0c, 0x00, 0x00, 0x00, 0x4d, 0x00, 0x00, 0x00, 0x00, 0x00, 0x00, 0x4d,
};
#define HUMIDITY_MODEL_DATA_LEN 5064
static const unsigned int g_humidity_model_len = 5064;
